unsigned char wine_mlp_float_tflite[] = {
  0x1c, 0x00, 0x00, 0x00, 0x54, 0x46, 0x4c, 0x33, 0x14, 0x00, 0x20, 0x00,
  0x1c, 0x00, 0x18, 0x00, 0x14, 0x00, 0x10, 0x00, 0x0c, 0x00, 0x00, 0x00,
  0x08, 0x00, 0x04, 0x00, 0x14, 0x00, 0x00, 0x00, 0x1c, 0x00, 0x00, 0x00,
  0x98, 0x00, 0x00, 0x00, 0xf0, 0x00, 0x00, 0x00, 0x1c, 0x08, 0x00, 0x00,
  0x2c, 0x08, 0x00, 0x00, 0xcc, 0x0d, 0x00, 0x00, 0x03, 0x00, 0x00, 0x00,
  0x01, 0x00, 0x00, 0x00, 0x10, 0x00, 0x00, 0x00, 0x00, 0x00, 0x0a, 0x00,
  0x10, 0x00, 0x0c, 0x00, 0x08, 0x00, 0x04, 0x00, 0x0a, 0x00, 0x00, 0x00,
  0x0c, 0x00, 0x00, 0x00, 0x1c, 0x00, 0x00, 0x00, 0x3c, 0x00, 0x00, 0x00,
  0x0f, 0x00, 0x00, 0x00, 0x73, 0x65, 0x72, 0x76, 0x69, 0x6e, 0x67, 0x5f,
  0x64, 0x65, 0x66, 0x61, 0x75, 0x6c, 0x74, 0x00, 0x01, 0x00, 0x00, 0x00,
  0x04, 0x00, 0x00, 0x00, 0x90, 0xff, 0xff, 0xff, 0x0a, 0x00, 0x00, 0x00,
  0x04, 0x00, 0x00, 0x00, 0x08, 0x00, 0x00, 0x00, 0x6f, 0x75, 0x74, 0x70,
  0x75, 0x74, 0x5f, 0x30, 0x00, 0x00, 0x00, 0x00, 0x01, 0x00, 0x00, 0x00,
  0x04, 0x00, 0x00, 0x00, 0xca, 0xf7, 0xff, 0xff, 0x04, 0x00, 0x00, 0x00,
  0x0c, 0x00, 0x00, 0x00, 0x6b, 0x65, 0x72, 0x61, 0x73, 0x5f, 0x74, 0x65,
  0x6e, 0x73, 0x6f, 0x72, 0x00, 0x00, 0x00, 0x00, 0x02, 0x00, 0x00, 0x00,
  0x34, 0x00, 0x00, 0x00, 0x04, 0x00, 0x00, 0x00, 0xdc, 0xff, 0xff, 0xff,
  0x0d, 0x00, 0x00, 0x00, 0x04, 0x00, 0x00, 0x00, 0x13, 0x00, 0x00, 0x00,
  0x43, 0x4f, 0x4e, 0x56, 0x45, 0x52, 0x53, 0x49, 0x4f, 0x4e, 0x5f, 0x4d,
  0x45, 0x54, 0x41, 0x44, 0x41, 0x54, 0x41, 0x00, 0x08, 0x00, 0x0c, 0x00,
  0x08, 0x00, 0x04, 0x00, 0x08, 0x00, 0x00, 0x00, 0x0c, 0x00, 0x00, 0x00,
  0x04, 0x00, 0x00, 0x00, 0x13, 0x00, 0x00, 0x00, 0x6d, 0x69, 0x6e, 0x5f,
  0x72, 0x75, 0x6e, 0x74, 0x69, 0x6d, 0x65, 0x5f, 0x76, 0x65, 0x72, 0x73,
  0x69, 0x6f, 0x6e, 0x00, 0x0e, 0x00, 0x00, 0x00, 0x28, 0x07, 0x00, 0x00,
  0x20, 0x07, 0x00, 0x00, 0xb0, 0x06, 0x00, 0x00, 0xa0, 0x04, 0x00, 0x00,
  0x84, 0x04, 0x00, 0x00, 0x54, 0x04, 0x00, 0x00, 0x04, 0x04, 0x00, 0x00,
  0xb4, 0x00, 0x00, 0x00, 0xac, 0x00, 0x00, 0x00, 0xa4, 0x00, 0x00, 0x00,
  0x9c, 0x00, 0x00, 0x00, 0x94, 0x00, 0x00, 0x00, 0x74, 0x00, 0x00, 0x00,
  0x04, 0x00, 0x00, 0x00, 0x7e, 0xf8, 0xff, 0xff, 0x04, 0x00, 0x00, 0x00,
  0x60, 0x00, 0x00, 0x00, 0x10, 0x00, 0x00, 0x00, 0x00, 0x00, 0x00, 0x00,
  0x08, 0x00, 0x0e, 0x00, 0x08, 0x00, 0x04, 0x00, 0x08, 0x00, 0x00, 0x00,
  0x10, 0x00, 0x00, 0x00, 0x24, 0x00, 0x00, 0x00, 0x00, 0x00, 0x06, 0x00,
  0x08, 0x00, 0x04, 0x00, 0x06, 0x00, 0x00, 0x00, 0x04, 0x00, 0x00, 0x00,
  0x00, 0x00, 0x00, 0x00, 0x0c, 0x00, 0x18, 0x00, 0x14, 0x00, 0x10, 0x00,
  0x0c, 0x00, 0x04, 0x00, 0x0c, 0x00, 0x00, 0x00, 0x86, 0x15, 0xde, 0x51,
  0xa6, 0x78, 0xd4, 0x03, 0x02, 0x00, 0x00, 0x00, 0x02, 0x00, 0x00, 0x00,
  0x04, 0x00, 0x00, 0x00, 0x06, 0x00, 0x00, 0x00, 0x32, 0x2e, 0x31, 0x39,
  0x2e, 0x30, 0x00, 0x00, 0xea, 0xf8, 0xff, 0xff, 0x04, 0x00, 0x00, 0x00,
  0x10, 0x00, 0x00, 0x00, 0x31, 0x2e, 0x35, 0x2e, 0x30, 0x00, 0x00, 0x00,
  0x00, 0x00, 0x00, 0x00, 0x00, 0x00, 0x00, 0x00, 0x14, 0xf4, 0xff, 0xff,
  0x18, 0xf4, 0xff, 0xff, 0x1c, 0xf4, 0xff, 0xff, 0x20, 0xf4, 0xff, 0xff,
  0x16, 0xf9, 0xff, 0xff, 0x04, 0x00, 0x00, 0x00, 0x40, 0x03, 0x00, 0x00,
  0x76, 0xa4, 0xf8, 0x3e, 0x48, 0x56, 0xab, 0x3e, 0xfb, 0xf1, 0x71, 0xbe,
  0x17, 0x38, 0xfa, 0xbc, 0x38, 0x11, 0x3b, 0x3e, 0xd3, 0x8b, 0x36, 0x3e,
  0xd3, 0x27, 0xf9, 0x3c, 0xa8, 0xcb, 0x1c, 0x3d, 0x91, 0x24, 0x02, 0xbf,
  0x92, 0x9c, 0xcf, 0xbd, 0x08, 0xbf, 0x0a, 0xbe, 0xc4, 0x38, 0x10, 0xbf,
  0x87, 0xeb, 0x97, 0xbe, 0x95, 0xef, 0x17, 0x3e, 0x79, 0x4e, 0xf1, 0xbe,
  0x57, 0x1f, 0x07, 0xbf, 0x14, 0x55, 0x17, 0xbe, 0x9e, 0xd0, 0xed, 0xbe,
  0xdc, 0xce, 0x29, 0x3e, 0x4f, 0x5b, 0xe2, 0xbe, 0x37, 0x5e, 0xd7, 0x3e,
  0x14, 0x9d, 0x8f, 0xbe, 0x17, 0xfb, 0xab, 0xbe, 0x02, 0xc8, 0xe1, 0x3e,
  0xa0, 0xa0, 0x1a, 0x3e, 0xb2, 0x5c, 0x9a, 0xbe, 0xb2, 0xb7, 0x1d, 0x3f,
  0x8e, 0xb9, 0x1a, 0xbe, 0x38, 0x8f, 0xc6, 0xbe, 0x0e, 0xb3, 0x3c, 0x3d,
  0x2d, 0x8c, 0xe4, 0x3e, 0xd1, 0xcc, 0xdb, 0x3e, 0x48, 0x17, 0x17, 0x3f,
  0xfc, 0x09, 0xeb, 0xbe, 0x33, 0x7c, 0x05, 0xbe, 0x86, 0x56, 0x79, 0x3e,
  0x66, 0xf8, 0x85, 0x3e, 0x07, 0xb1, 0x7b, 0x3e, 0xab, 0xb0, 0x03, 0xbe,
  0xbd, 0x58, 0x18, 0xbf, 0xa0, 0x7a, 0x9b, 0x3c, 0x93, 0x4f, 0x17, 0xbf,
  0xbb, 0x2b, 0xff, 0x3e, 0xc5, 0x55, 0x2d, 0x3e, 0x60, 0x79, 0x9d, 0xbe,
  0xb1, 0x1a, 0xb6, 0x3e, 0x3c, 0x81, 0xc5, 0xbe, 0xbf, 0x75, 0x0d, 0x3f,
  0xaa, 0x19, 0x9d, 0xbe, 0x45, 0x63, 0xa7, 0x3e, 0x26, 0xc8, 0x7e, 0x3e,
  0x3f, 0x65, 0xbb, 0xbe, 0x38, 0x9d, 0x27, 0xbf, 0x9e, 0x22, 0x82, 0xbe,
  0xbc, 0x64, 0x31, 0x3e, 0xfb, 0xad, 0xce, 0x3e, 0x6c, 0xa2, 0xab, 0xbe,
  0x49, 0xe1, 0xdf, 0x3e, 0x1a, 0x8a, 0x2e, 0xbe, 0xae, 0xec, 0x84, 0x3c,
  0x38, 0xb2, 0x20, 0xbe, 0x3e, 0x66, 0x22, 0xbf, 0xe2, 0x9d, 0xac, 0x3e,
  0xab, 0xa2, 0x9b, 0xbe, 0xec, 0x26, 0x8c, 0xbe, 0x3a, 0x99, 0x96, 0xbe,
  0x06, 0x3e, 0xaa, 0xbe, 0x10, 0x30, 0x4a, 0x3e, 0x38, 0x5e, 0x15, 0x3e,
  0xdb, 0x2b, 0xc3, 0xbd, 0xd7, 0x6b, 0x3d, 0xbe, 0xd8, 0x59, 0xa1, 0x3e,
  0x01, 0x12, 0xa0, 0x3e, 0x10, 0x46, 0x75, 0xbe, 0x47, 0xe2, 0x25, 0xbf,
  0xe2, 0xa3, 0x0b, 0x3d, 0x58, 0xf3, 0xa2, 0xbd, 0x87, 0xb3, 0x4c, 0xbe,
  0xcc, 0x3b, 0xdc, 0x3c, 0x8b, 0x73, 0xbc, 0x3e, 0xba, 0xf7, 0x02, 0x3f,
  0x24, 0x4a, 0xca, 0xbe, 0x0d, 0x2f, 0xe7, 0xbd, 0x8e, 0xa5, 0xb8, 0x3e,
  0x05, 0x6a, 0x38, 0xbe, 0xc6, 0x8f, 0x88, 0x3e, 0x1a, 0xae, 0x0a, 0xbe,
  0x62, 0xa5, 0x69, 0x3e, 0xc8, 0x44, 0x10, 0xbd, 0xeb, 0x38, 0xac, 0x3e,
  0xfc, 0xee, 0x2d, 0x3f, 0x74, 0xb7, 0xf8, 0xbc, 0x9e, 0xae, 0xb1, 0xbe,
  0x82, 0x1d, 0x4d, 0xbe, 0xc3, 0x7f, 0xdd, 0x3e, 0x31, 0x95, 0xfd, 0x3c,
  0x2f, 0x68, 0x09, 0xbf, 0xb0, 0xc4, 0xbb, 0xbe, 0x8f, 0x4d, 0xad, 0x3d,
  0x95, 0x95, 0x6f, 0xbe, 0xd2, 0xe1, 0x14, 0x3e, 0xc3, 0x9f, 0xd1, 0xbe,
  0x17, 0x06, 0x26, 0xbf, 0x29, 0x5b, 0x1c, 0xbe, 0x3c, 0xb2, 0xd5, 0x3e,
  0xd7, 0x80, 0x0f, 0xbe, 0xd9, 0x87, 0xbe, 0x3e, 0x28, 0x23, 0xbc, 0xbe,
  0xc1, 0xc3, 0x0e, 0xbe, 0x47, 0xd6, 0x02, 0x3f, 0x1c, 0xd7, 0xf6, 0x3e,
  0xcc, 0xd0, 0x89, 0xbd, 0x35, 0x3f, 0xd7, 0xbd, 0x3d, 0x44, 0xda, 0x3e,
  0x48, 0xdf, 0x37, 0x3c, 0x0e, 0x46, 0xf7, 0x3e, 0x8a, 0x87, 0xae, 0x3e,
  0xe0, 0x29, 0x80, 0xbe, 0x5c, 0xe1, 0xf1, 0xbc, 0x11, 0xf8, 0x41, 0x3e,
  0x37, 0x87, 0x02, 0xbf, 0x9e, 0xf7, 0x90, 0xbe, 0xd3, 0xe3, 0x23, 0xbe,
  0x36, 0x58, 0x1b, 0xbe, 0xca, 0x3f, 0xbd, 0x3e, 0xb2, 0xce, 0xca, 0x3e,
  0xa9, 0xb5, 0x17, 0xbe, 0x5a, 0x25, 0xd1, 0xbb, 0xa1, 0x7f, 0x50, 0xbe,
  0xa4, 0xf4, 0x77, 0xbe, 0x64, 0xca, 0x12, 0x3f, 0x7a, 0x9a, 0x1f, 0xbe,
  0xcb, 0xf2, 0xff, 0x3e, 0x9c, 0xdd, 0x8d, 0xbe, 0xbc, 0x6f, 0xa9, 0x3e,
  0x74, 0x98, 0x3b, 0xbb, 0xce, 0xdc, 0xf6, 0x3e, 0x5e, 0x4b, 0x11, 0xbf,
  0x39, 0xd1, 0x73, 0x3d, 0xae, 0x11, 0xa8, 0x3e, 0xe8, 0x42, 0xba, 0x3e,
  0x47, 0xb8, 0x10, 0xbe, 0x6e, 0x06, 0x10, 0x3f, 0x01, 0x55, 0x36, 0x3f,
  0x4e, 0xc7, 0x00, 0x3e, 0xed, 0x8c, 0x22, 0xbe, 0x6c, 0xea, 0xdd, 0xbe,
  0xd1, 0xfc, 0xb5, 0x3d, 0xbe, 0x46, 0xca, 0x3e, 0x81, 0x9f, 0xf9, 0x3e,
  0xd4, 0x05, 0xbb, 0xbe, 0x82, 0x1f, 0xba, 0x3d, 0x95, 0xa3, 0xc3, 0x3d,
  0xb6, 0xb4, 0x8b, 0x3c, 0x7f, 0xfe, 0x1a, 0x3e, 0x10, 0x19, 0x21, 0x3d,
  0x13, 0x77, 0x22, 0x3d, 0x61, 0x10, 0xa9, 0xbe, 0xd8, 0x55, 0xab, 0x3e,
  0x4c, 0x98, 0xa1, 0x3e, 0x96, 0x19, 0x6a, 0xbe, 0xc3, 0x84, 0xab, 0xbe,
  0xf3, 0x78, 0x2e, 0xbf, 0x53, 0xd7, 0x19, 0xbe, 0xfd, 0x4d, 0xe2, 0xbe,
  0x62, 0x16, 0x07, 0x3f, 0xd0, 0x7b, 0xf2, 0x3d, 0xf8, 0xa8, 0x88, 0xbd,
  0x47, 0x5e, 0x85, 0x3e, 0xe8, 0xc8, 0x8a, 0x3e, 0x21, 0xc9, 0x10, 0xbe,
  0xd1, 0x07, 0xe4, 0xbd, 0xe9, 0xfb, 0xd3, 0x3e, 0xfb, 0x4a, 0xa3, 0x3e,
  0x4f, 0xcc, 0xcf, 0x3d, 0x50, 0x2a, 0xca, 0xbe, 0x21, 0xb8, 0xee, 0x3d,
  0xbe, 0xbc, 0x04, 0xbe, 0x89, 0x80, 0x17, 0x3f, 0xa5, 0x06, 0x56, 0x3e,
  0x43, 0x10, 0x8f, 0x3e, 0x3c, 0xac, 0xbe, 0xbe, 0x6e, 0x2f, 0x51, 0x3e,
  0x56, 0xbe, 0xbc, 0x3d, 0x57, 0x3f, 0xb0, 0x3c, 0xb7, 0x47, 0x44, 0x3e,
  0x5e, 0x89, 0x2b, 0x3e, 0xc7, 0xd9, 0x89, 0xbd, 0xf6, 0xad, 0xf7, 0xbe,
  0x79, 0xa2, 0x90, 0x3e, 0xe9, 0xf0, 0xb2, 0xbe, 0x11, 0xf2, 0xb4, 0x3d,
  0x2f, 0x8f, 0x20, 0xbf, 0x5d, 0x61, 0xff, 0xbe, 0xec, 0x14, 0xa8, 0x3e,
  0xc0, 0x90, 0x41, 0xbe, 0x40, 0x52, 0x20, 0x3d, 0x11, 0x83, 0x1e, 0xbe,
  0xf4, 0xcb, 0x5c, 0xbe, 0x0c, 0x55, 0xdd, 0xbc, 0x7b, 0xc4, 0xbf, 0xbe,
  0xfa, 0xc9, 0x8d, 0xbe, 0x88, 0x26, 0x94, 0xbe, 0xa8, 0x31, 0xda, 0xbe,
  0x83, 0x71, 0xa5, 0xbe, 0x5f, 0x58, 0x67, 0xbe, 0x84, 0xbf, 0x1f, 0x3e,
  0x72, 0xf8, 0xa3, 0x3e, 0x62, 0xfc, 0xff, 0xff, 0x04, 0x00, 0x00, 0x00,
  0x40, 0x00, 0x00, 0x00, 0x8c, 0xce, 0x72, 0xbd, 0x17, 0x64, 0x70, 0x3e,
  0x49, 0xc5, 0x1b, 0x3e, 0x77, 0x9b, 0xbe, 0x3e, 0xaf, 0x4b, 0x88, 0x3e,
  0x36, 0xb0, 0x43, 0x3e, 0x8d, 0x0b, 0xa9, 0x3e, 0xce, 0xed, 0x8f, 0x3e,
  0x19, 0x72, 0x53, 0x3e, 0x37, 0x01, 0xd4, 0x3c, 0x40, 0xd6, 0x8a, 0x3e,
  0x34, 0x74, 0x3f, 0x3e, 0xea, 0x43, 0xea, 0x3c, 0x80, 0xde, 0x9c, 0xbd,
  0x49, 0x42, 0x5b, 0xbd, 0x24, 0x57, 0x8a, 0xbc, 0xae, 0xfc, 0xff, 0xff,
  0x04, 0x00, 0x00, 0x00, 0x20, 0x00, 0x00, 0x00, 0xad, 0x4a, 0x4d, 0xbd,
  0xc2, 0x47, 0xe6, 0x3d, 0xa9, 0x3b, 0x4e, 0x3e, 0xfb, 0xf9, 0x19, 0x3c,
  0x87, 0x24, 0xb7, 0x3e, 0xa3, 0xfd, 0x18, 0xbd, 0x3a, 0xa4, 0xc1, 0x3c,
  0x33, 0x15, 0xd1, 0xbd, 0xda, 0xfc, 0xff, 0xff, 0x04, 0x00, 0x00, 0x00,
  0x0c, 0x00, 0x00, 0x00, 0x17, 0xaf, 0x2f, 0x3c, 0x8d, 0xcc, 0x0a, 0x3e,
  0x12, 0x71, 0x23, 0xbe, 0xf2, 0xfc, 0xff, 0xff, 0x04, 0x00, 0x00, 0x00,
  0x00, 0x02, 0x00, 0x00, 0x28, 0x26, 0x64, 0x3e, 0xe4, 0x3e, 0xdb, 0xbe,
  0x87, 0xac, 0x3b, 0x3d, 0xaa, 0x7f, 0xfe, 0xbe, 0xf6, 0x2b, 0x77, 0x3e,
  0x59, 0x48, 0xdf, 0xbe, 0x89, 0x88, 0xc9, 0x3e, 0xa8, 0x0e, 0x8b, 0x3e,
  0x59, 0xb2, 0xa2, 0x3e, 0x75, 0x5a, 0x5c, 0xbe, 0x68, 0xa0, 0x77, 0xbe,
  0x7f, 0xad, 0x16, 0xbe, 0xa3, 0xcc, 0x2f, 0x3f, 0x4e, 0x35, 0xb1, 0x3e,
  0x92, 0x8f, 0xa9, 0x3d, 0x8f, 0x49, 0xcb, 0x3e, 0xfc, 0x6a, 0xc1, 0x3d,
  0xee, 0xd7, 0x94, 0xbe, 0x00, 0x33, 0xb1, 0x3e, 0x22, 0x8b, 0x3a, 0x3e,
  0xeb, 0x48, 0x04, 0xbf, 0x40, 0xa5, 0x88, 0x3e, 0x97, 0xfb, 0x26, 0x3f,
  0xc3, 0x91, 0x2f, 0x3d, 0x8d, 0x7e, 0x4f, 0x3f, 0xcc, 0xad, 0xb3, 0x3e,
  0x2c, 0x7e, 0x03, 0x3f, 0x4f, 0x3f, 0x3f, 0xbd, 0x3d, 0x4e, 0x3a, 0x3e,
  0x77, 0x3a, 0x9b, 0xbe, 0x7d, 0xe6, 0xd8, 0xbe, 0x07, 0xe0, 0xb0, 0xbe,
  0x5a, 0x42, 0x6c, 0xbd, 0x35, 0x64, 0xdd, 0x3e, 0x68, 0xe2, 0x00, 0x3f,
  0xbb, 0x3b, 0x90, 0x3e, 0x0c, 0xd7, 0x21, 0x3e, 0x25, 0x20, 0x29, 0x3f,
  0xbc, 0xf6, 0x2f, 0x3d, 0x36, 0xcf, 0xad, 0x3e, 0xa1, 0x7c, 0xdb, 0x3d,
  0x80, 0xb0, 0x82, 0xbd, 0xb1, 0x83, 0x25, 0x3f, 0xc7, 0xe3, 0x98, 0x3e,
  0x44, 0x11, 0x61, 0xbe, 0x45, 0xee, 0x86, 0xbd, 0xb7, 0xe0, 0x0b, 0xbf,
  0x5f, 0x93, 0x0b, 0x3e, 0x34, 0xb5, 0x8c, 0x3e, 0xca, 0x4a, 0xd6, 0xbe,
  0x54, 0x27, 0x05, 0x3d, 0xbb, 0xc4, 0xd4, 0xbe, 0xd9, 0x19, 0x56, 0x3d,
  0xee, 0xb4, 0x9c, 0x3c, 0x7c, 0x5c, 0x44, 0x3f, 0x69, 0x72, 0xbf, 0xbe,
  0x8d, 0x18, 0x53, 0x3e, 0x7f, 0x31, 0xa6, 0x3e, 0xd7, 0xd9, 0xb3, 0x3e,
  0x35, 0xcb, 0x05, 0x3f, 0x7f, 0x2b, 0xc8, 0x3e, 0x8c, 0x40, 0x5d, 0x3c,
  0xc7, 0xe4, 0x72, 0x3e, 0xf1, 0xac, 0x81, 0x3e, 0x78, 0x16, 0xcf, 0x3d,
  0x49, 0xed, 0x1c, 0x3f, 0x71, 0x5d, 0x02, 0xbe, 0x12, 0x84, 0x6b, 0x3f,
  0xd9, 0x72, 0x9f, 0x3e, 0x95, 0xda, 0xb8, 0x3e, 0xc6, 0xfb, 0xef, 0xbe,
  0x3f, 0x2e, 0x35, 0x3e, 0x85, 0x89, 0x85, 0xbd, 0xc0, 0x4a, 0xf6, 0x3e,
  0x6f, 0x2f, 0x46, 0xbe, 0x08, 0xcf, 0xb5, 0xbd, 0x05, 0x57, 0x73, 0xbd,
  0x67, 0x29, 0xb5, 0xbe, 0x26, 0xef, 0x8d, 0xbe, 0x18, 0xb2, 0x10, 0xbc,
  0x9a, 0x8a, 0xec, 0x3e, 0x6a, 0xdc, 0x70, 0x3e, 0x8b, 0xa8, 0xe0, 0xbe,
  0xa4, 0x85, 0x2f, 0xbe, 0x66, 0xe9, 0xe4, 0x3d, 0x98, 0x86, 0x89, 0xbe,
  0xdf, 0x53, 0x75, 0x3e, 0xd2, 0x0f, 0xec, 0x3e, 0x1c, 0x59, 0x3d, 0xbe,
  0x75, 0xbb, 0x9e, 0xbe, 0xe6, 0x1e, 0x9a, 0x3e, 0xea, 0xb8, 0x01, 0xbf,
  0xf3, 0x0b, 0x32, 0x3f, 0xb5, 0xd4, 0x82, 0xbd, 0x36, 0xcc, 0x23, 0x3f,
  0xa1, 0xc0, 0x00, 0xbf, 0xa3, 0xd3, 0xd1, 0xbd, 0xb5, 0xcf, 0x6f, 0x3e,
  0x9e, 0xdc, 0xbe, 0x3d, 0x92, 0x26, 0x1b, 0x3f, 0x51, 0x6b, 0xde, 0x3e,
  0x39, 0x87, 0xfd, 0x3d, 0x9f, 0x71, 0x1b, 0xbf, 0xf6, 0xde, 0x03, 0x3f,
  0xc2, 0x95, 0x8c, 0xbe, 0xb7, 0x3d, 0xbf, 0x3e, 0x1a, 0x4d, 0xd5, 0x3e,
  0x98, 0x70, 0x8a, 0xbe, 0x72, 0x80, 0xd3, 0xbc, 0x93, 0x7c, 0xbc, 0x3e,
  0xa2, 0xf9, 0x51, 0xbe, 0x52, 0x3d, 0x9b, 0x3e, 0x50, 0x6a, 0x8b, 0x3e,
  0x44, 0x04, 0x82, 0x3e, 0x4c, 0xfc, 0x13, 0x3e, 0xb6, 0xaa, 0x36, 0x3d,
  0xbf, 0x28, 0xa7, 0xbe, 0x1a, 0x44, 0x4a, 0xbe, 0x95, 0x53, 0x12, 0xbe,
  0x29, 0x4c, 0x0d, 0x3f, 0xa8, 0x32, 0x37, 0xbc, 0x77, 0x68, 0xb8, 0xbe,
  0x53, 0x23, 0x92, 0x3d, 0x9b, 0x93, 0x82, 0xbd, 0xd6, 0xd5, 0x94, 0x3e,
  0xb4, 0xec, 0x69, 0x3e, 0x30, 0x1f, 0x16, 0x3f, 0xd8, 0x8a, 0xa7, 0xbe,
  0xfe, 0xfe, 0xff, 0xff, 0x04, 0x00, 0x00, 0x00, 0x60, 0x00, 0x00, 0x00,
  0xb5, 0xe1, 0x1f, 0xbe, 0x92, 0x06, 0x0a, 0x3f, 0xfd, 0x65, 0xd3, 0x3e,
  0x11, 0xb3, 0x5a, 0x3f, 0xe0, 0xa8, 0x4f, 0x3d, 0x30, 0xea, 0xed, 0x3d,
  0xf3, 0xdd, 0x70, 0xbf, 0x24, 0xcc, 0xa6, 0xbe, 0xe5, 0xf4, 0x0f, 0xbf,
  0xd6, 0xbc, 0x6c, 0xbe, 0xcd, 0xb6, 0x9f, 0x3e, 0x71, 0x02, 0x83, 0xbe,
  0xf7, 0x13, 0x9a, 0x3f, 0xff, 0xe9, 0x8e, 0x3e, 0x3c, 0x2f, 0x33, 0x3e,
  0xe2, 0xd5, 0x8c, 0x3d, 0x51, 0x0b, 0x18, 0x3f, 0xd9, 0x8d, 0x60, 0xbe,
  0x9e, 0xc4, 0x77, 0xbf, 0x22, 0x5d, 0x30, 0x3f, 0xc7, 0xc9, 0x20, 0xbf,
  0x86, 0xe6, 0x14, 0x3f, 0x13, 0x40, 0x0f, 0x3f, 0x33, 0xd0, 0x26, 0x3f,
  0x78, 0xfa, 0xff, 0xff, 0x7c, 0xfa, 0xff, 0xff, 0x0f, 0x00, 0x00, 0x00,
  0x4d, 0x4c, 0x49, 0x52, 0x20, 0x43, 0x6f, 0x6e, 0x76, 0x65, 0x72, 0x74,
  0x65, 0x64, 0x2e, 0x00, 0x01, 0x00, 0x00, 0x00, 0x14, 0x00, 0x00, 0x00,
  0x00, 0x00, 0x0e, 0x00, 0x18, 0x00, 0x14, 0x00, 0x10, 0x00, 0x0c, 0x00,
  0x08, 0x00, 0x04, 0x00, 0x0e, 0x00, 0x00, 0x00, 0x14, 0x00, 0x00, 0x00,
  0x1c, 0x00, 0x00, 0x00, 0x24, 0x01, 0x00, 0x00, 0x28, 0x01, 0x00, 0x00,
  0x2c, 0x01, 0x00, 0x00, 0x04, 0x00, 0x00, 0x00, 0x6d, 0x61, 0x69, 0x6e,
  0x00, 0x00, 0x00, 0x00, 0x04, 0x00, 0x00, 0x00, 0xcc, 0x00, 0x00, 0x00,
  0x84, 0x00, 0x00, 0x00, 0x50, 0x00, 0x00, 0x00, 0x14, 0x00, 0x00, 0x00,
  0x00, 0x00, 0x0e, 0x00, 0x1a, 0x00, 0x14, 0x00, 0x10, 0x00, 0x0c, 0x00,
  0x0b, 0x00, 0x04, 0x00, 0x0e, 0x00, 0x00, 0x00, 0x1c, 0x00, 0x00, 0x00,
  0x00, 0x00, 0x00, 0x09, 0x1c, 0x00, 0x00, 0x00, 0x20, 0x00, 0x00, 0x00,
  0x01, 0x00, 0x00, 0x00, 0x00, 0x00, 0x06, 0x00, 0x08, 0x00, 0x04, 0x00,
  0x06, 0x00, 0x00, 0x00, 0x00, 0x00, 0x80, 0x3f, 0x01, 0x00, 0x00, 0x00,
  0x0a, 0x00, 0x00, 0x00, 0x01, 0x00, 0x00, 0x00, 0x09, 0x00, 0x00, 0x00,
  0x9a, 0xff, 0xff, 0xff, 0x10, 0x00, 0x00, 0x00, 0x00, 0x00, 0x00, 0x08,
  0x0c, 0x00, 0x00, 0x00, 0x10, 0x00, 0x00, 0x00, 0x40, 0xfb, 0xff, 0xff,
  0x01, 0x00, 0x00, 0x00, 0x09, 0x00, 0x00, 0x00, 0x03, 0x00, 0x00, 0x00,
  0x08, 0x00, 0x00, 0x00, 0x01, 0x00, 0x00, 0x00, 0x03, 0x00, 0x00, 0x00,
  0xca, 0xff, 0xff, 0xff, 0x10, 0x00, 0x00, 0x00, 0x00, 0x00, 0x00, 0x08,
  0x10, 0x00, 0x00, 0x00, 0x14, 0x00, 0x00, 0x00, 0xba, 0xff, 0xff, 0xff,
  0x00, 0x00, 0x00, 0x01, 0x01, 0x00, 0x00, 0x00, 0x08, 0x00, 0x00, 0x00,
  0x03, 0x00, 0x00, 0x00, 0x07, 0x00, 0x00, 0x00, 0x02, 0x00, 0x00, 0x00,
  0x04, 0x00, 0x00, 0x00, 0x00, 0x00, 0x0e, 0x00, 0x16, 0x00, 0x00, 0x00,
  0x10, 0x00, 0x0c, 0x00, 0x0b, 0x00, 0x04, 0x00, 0x0e, 0x00, 0x00, 0x00,
  0x18, 0x00, 0x00, 0x00, 0x00, 0x00, 0x00, 0x08, 0x18, 0x00, 0x00, 0x00,
  0x1c, 0x00, 0x00, 0x00, 0x00, 0x00, 0x06, 0x00, 0x08, 0x00, 0x07, 0x00,
  0x06, 0x00, 0x00, 0x00, 0x00, 0x00, 0x00, 0x01, 0x01, 0x00, 0x00, 0x00,
  0x07, 0x00, 0x00, 0x00, 0x03, 0x00, 0x00, 0x00, 0x00, 0x00, 0x00, 0x00,
  0x06, 0x00, 0x00, 0x00, 0x05, 0x00, 0x00, 0x00, 0x01, 0x00, 0x00, 0x00,
  0x0a, 0x00, 0x00, 0x00, 0x01, 0x00, 0x00, 0x00, 0x00, 0x00, 0x00, 0x00,
  0x0b, 0x00, 0x00, 0x00, 0xe8, 0x03, 0x00, 0x00, 0x90, 0x03, 0x00, 0x00,
  0x38, 0x03, 0x00, 0x00, 0xfc, 0x02, 0x00, 0x00, 0xc0, 0x02, 0x00, 0x00,
  0x64, 0x02, 0x00, 0x00, 0x14, 0x02, 0x00, 0x00, 0x78, 0x01, 0x00, 0x00,
  0xdc, 0x00, 0x00, 0x00, 0x60, 0x00, 0x00, 0x00, 0x04, 0x00, 0x00, 0x00,
  0x5a, 0xfc, 0xff, 0xff, 0x00, 0x00, 0x00, 0x01, 0x14, 0x00, 0x00, 0x00,
  0x1c, 0x00, 0x00, 0x00, 0x1c, 0x00, 0x00, 0x00, 0x0b, 0x00, 0x00, 0x00,
  0x34, 0x00, 0x00, 0x00, 0x02, 0x00, 0x00, 0x00, 0xff, 0xff, 0xff, 0xff,
  0x03, 0x00, 0x00, 0x00, 0x44, 0xfc, 0xff, 0xff, 0x1b, 0x00, 0x00, 0x00,
  0x53, 0x74, 0x61, 0x74, 0x65, 0x66, 0x75, 0x6c, 0x50, 0x61, 0x72, 0x74,
  0x69, 0x74, 0x69, 0x6f, 0x6e, 0x65, 0x64, 0x43, 0x61, 0x6c, 0x6c, 0x5f,
  0x31, 0x3a, 0x30, 0x00, 0x02, 0x00, 0x00, 0x00, 0x01, 0x00, 0x00, 0x00,
  0x03, 0x00, 0x00, 0x00, 0xb2, 0xfc, 0xff, 0xff, 0x00, 0x00, 0x00, 0x01,
  0x14, 0x00, 0x00, 0x00, 0x1c, 0x00, 0x00, 0x00, 0x1c, 0x00, 0x00, 0x00,
  0x0a, 0x00, 0x00, 0x00, 0x54, 0x00, 0x00, 0x00, 0x02, 0x00, 0x00, 0x00,
  0xff, 0xff, 0xff, 0xff, 0x03, 0x00, 0x00, 0x00, 0x9c, 0xfc, 0xff, 0xff,
  0x3a, 0x00, 0x00, 0x00, 0x73, 0x65, 0x71, 0x75, 0x65, 0x6e, 0x74, 0x69,
  0x61, 0x6c, 0x5f, 0x31, 0x2f, 0x6f, 0x75, 0x74, 0x70, 0x75, 0x74, 0x5f,
  0x31, 0x2f, 0x4d, 0x61, 0x74, 0x4d, 0x75, 0x6c, 0x3b, 0x73, 0x65, 0x71,
  0x75, 0x65, 0x6e, 0x74, 0x69, 0x61, 0x6c, 0x5f, 0x31, 0x2f, 0x6f, 0x75,
  0x74, 0x70, 0x75, 0x74, 0x5f, 0x31, 0x2f, 0x42, 0x69, 0x61, 0x73, 0x41,
  0x64, 0x64, 0x00, 0x00, 0x02, 0x00, 0x00, 0x00, 0x01, 0x00, 0x00, 0x00,
  0x03, 0x00, 0x00, 0x00, 0x2a, 0xfd, 0xff, 0xff, 0x00, 0x00, 0x00, 0x01,
  0x14, 0x00, 0x00, 0x00, 0x1c, 0x00, 0x00, 0x00, 0x1c, 0x00, 0x00, 0x00,
  0x09, 0x00, 0x00, 0x00, 0x74, 0x00, 0x00, 0x00, 0x02, 0x00, 0x00, 0x00,
  0xff, 0xff, 0xff, 0xff, 0x08, 0x00, 0x00, 0x00, 0x14, 0xfd, 0xff, 0xff,
  0x5b, 0x00, 0x00, 0x00, 0x73, 0x65, 0x71, 0x75, 0x65, 0x6e, 0x74, 0x69,
  0x61, 0x6c, 0x5f, 0x31, 0x2f, 0x68, 0x69, 0x64, 0x64, 0x65, 0x6e, 0x5f,
  0x32, 0x5f, 0x31, 0x2f, 0x4d, 0x61, 0x74, 0x4d, 0x75, 0x6c, 0x3b, 0x73,
  0x65, 0x71, 0x75, 0x65, 0x6e, 0x74, 0x69, 0x61, 0x6c, 0x5f, 0x31, 0x2f,
  0x68, 0x69, 0x64, 0x64, 0x65, 0x6e, 0x5f, 0x32, 0x5f, 0x31, 0x2f, 0x52,
  0x65, 0x6c, 0x75, 0x3b, 0x73, 0x65, 0x71, 0x75, 0x65, 0x6e, 0x74, 0x69,
  0x61, 0x6c, 0x5f, 0x31, 0x2f, 0x68, 0x69, 0x64, 0x64, 0x65, 0x6e, 0x5f,
  0x32, 0x5f, 0x31, 0x2f, 0x42, 0x69, 0x61, 0x73, 0x41, 0x64, 0x64, 0x00,
  0x02, 0x00, 0x00, 0x00, 0x01, 0x00, 0x00, 0x00, 0x08, 0x00, 0x00, 0x00,
  0xc2, 0xfd, 0xff, 0xff, 0x00, 0x00, 0x00, 0x01, 0x14, 0x00, 0x00, 0x00,
  0x1c, 0x00, 0x00, 0x00, 0x1c, 0x00, 0x00, 0x00, 0x08, 0x00, 0x00, 0x00,
  0x74, 0x00, 0x00, 0x00, 0x02, 0x00, 0x00, 0x00, 0xff, 0xff, 0xff, 0xff,
  0x10, 0x00, 0x00, 0x00, 0xac, 0xfd, 0xff, 0xff, 0x5b, 0x00, 0x00, 0x00,
  0x73, 0x65, 0x71, 0x75, 0x65, 0x6e, 0x74, 0x69, 0x61, 0x6c, 0x5f, 0x31,
  0x2f, 0x68, 0x69, 0x64, 0x64, 0x65, 0x6e, 0x5f, 0x31, 0x5f, 0x31, 0x2f,
  0x4d, 0x61, 0x74, 0x4d, 0x75, 0x6c, 0x3b, 0x73, 0x65, 0x71, 0x75, 0x65,
  0x6e, 0x74, 0x69, 0x61, 0x6c, 0x5f, 0x31, 0x2f, 0x68, 0x69, 0x64, 0x64,
  0x65, 0x6e, 0x5f, 0x31, 0x5f, 0x31, 0x2f, 0x52, 0x65, 0x6c, 0x75, 0x3b,
  0x73, 0x65, 0x71, 0x75, 0x65, 0x6e, 0x74, 0x69, 0x61, 0x6c, 0x5f, 0x31,
  0x2f, 0x68, 0x69, 0x64, 0x64, 0x65, 0x6e, 0x5f, 0x31, 0x5f, 0x31, 0x2f,
  0x42, 0x69, 0x61, 0x73, 0x41, 0x64, 0x64, 0x00, 0x02, 0x00, 0x00, 0x00,
  0x01, 0x00, 0x00, 0x00, 0x10, 0x00, 0x00, 0x00, 0xae, 0xfe, 0xff, 0xff,
  0x00, 0x00, 0x00, 0x01, 0x10, 0x00, 0x00, 0x00, 0x10, 0x00, 0x00, 0x00,
  0x07, 0x00, 0x00, 0x00, 0x2c, 0x00, 0x00, 0x00, 0x34, 0xfe, 0xff, 0xff,
  0x1e, 0x00, 0x00, 0x00, 0x73, 0x65, 0x71, 0x75, 0x65, 0x6e, 0x74, 0x69,
  0x61, 0x6c, 0x5f, 0x31, 0x2f, 0x68, 0x69, 0x64, 0x64, 0x65, 0x6e, 0x5f,
  0x31, 0x5f, 0x31, 0x2f, 0x4d, 0x61, 0x74, 0x4d, 0x75, 0x6c, 0x00, 0x00,
  0x02, 0x00, 0x00, 0x00, 0x10, 0x00, 0x00, 0x00, 0x0d, 0x00, 0x00, 0x00,
  0xfa, 0xfe, 0xff, 0xff, 0x00, 0x00, 0x00, 0x01, 0x10, 0x00, 0x00, 0x00,
  0x10, 0x00, 0x00, 0x00, 0x06, 0x00, 0x00, 0x00, 0x3c, 0x00, 0x00, 0x00,
  0x80, 0xfe, 0xff, 0xff, 0x2e, 0x00, 0x00, 0x00, 0x73, 0x65, 0x71, 0x75,
  0x65, 0x6e, 0x74, 0x69, 0x61, 0x6c, 0x5f, 0x31, 0x2f, 0x68, 0x69, 0x64,
  0x64, 0x65, 0x6e, 0x5f, 0x31, 0x5f, 0x31, 0x2f, 0x42, 0x69, 0x61, 0x73,
  0x41, 0x64, 0x64, 0x2f, 0x52, 0x65, 0x61, 0x64, 0x56, 0x61, 0x72, 0x69,
  0x61, 0x62, 0x6c, 0x65, 0x4f, 0x70, 0x00, 0x00, 0x01, 0x00, 0x00, 0x00,
  0x10, 0x00, 0x00, 0x00, 0x52, 0xff, 0xff, 0xff, 0x00, 0x00, 0x00, 0x01,
  0x10, 0x00, 0x00, 0x00, 0x10, 0x00, 0x00, 0x00, 0x05, 0x00, 0x00, 0x00,
  0x1c, 0x00, 0x00, 0x00, 0xd8, 0xfe, 0xff, 0xff, 0x0f, 0x00, 0x00, 0x00,
  0x61, 0x72, 0x69, 0x74, 0x68, 0x2e, 0x63, 0x6f, 0x6e, 0x73, 0x74, 0x61,
  0x6e, 0x74, 0x33, 0x00, 0x01, 0x00, 0x00, 0x00, 0x08, 0x00, 0x00, 0x00,
  0x8a, 0xff, 0xff, 0xff, 0x00, 0x00, 0x00, 0x01, 0x10, 0x00, 0x00, 0x00,
  0x10, 0x00, 0x00, 0x00, 0x04, 0x00, 0x00, 0x00, 0x1c, 0x00, 0x00, 0x00,
  0x10, 0xff, 0xff, 0xff, 0x0f, 0x00, 0x00, 0x00, 0x61, 0x72, 0x69, 0x74,
  0x68, 0x2e, 0x63, 0x6f, 0x6e, 0x73, 0x74, 0x61, 0x6e, 0x74, 0x32, 0x00,
  0x01, 0x00, 0x00, 0x00, 0x03, 0x00, 0x00, 0x00, 0xc2, 0xff, 0xff, 0xff,
  0x00, 0x00, 0x00, 0x01, 0x10, 0x00, 0x00, 0x00, 0x10, 0x00, 0x00, 0x00,
  0x03, 0x00, 0x00, 0x00, 0x1c, 0x00, 0x00, 0x00, 0x48, 0xff, 0xff, 0xff,
  0x0f, 0x00, 0x00, 0x00, 0x61, 0x72, 0x69, 0x74, 0x68, 0x2e, 0x63, 0x6f,
  0x6e, 0x73, 0x74, 0x61, 0x6e, 0x74, 0x31, 0x00, 0x02, 0x00, 0x00, 0x00,
  0x08, 0x00, 0x00, 0x00, 0x10, 0x00, 0x00, 0x00, 0x00, 0x00, 0x16, 0x00,
  0x18, 0x00, 0x14, 0x00, 0x00, 0x00, 0x10, 0x00, 0x0c, 0x00, 0x08, 0x00,
  0x00, 0x00, 0x00, 0x00, 0x00, 0x00, 0x07, 0x00, 0x16, 0x00, 0x00, 0x00,
  0x00, 0x00, 0x00, 0x01, 0x10, 0x00, 0x00, 0x00, 0x10, 0x00, 0x00, 0x00,
  0x02, 0x00, 0x00, 0x00, 0x1c, 0x00, 0x00, 0x00, 0x9c, 0xff, 0xff, 0xff,
  0x0e, 0x00, 0x00, 0x00, 0x61, 0x72, 0x69, 0x74, 0x68, 0x2e, 0x63, 0x6f,
  0x6e, 0x73, 0x74, 0x61, 0x6e, 0x74, 0x00, 0x00, 0x02, 0x00, 0x00, 0x00,
  0x03, 0x00, 0x00, 0x00, 0x08, 0x00, 0x00, 0x00, 0x00, 0x00, 0x16, 0x00,
  0x1c, 0x00, 0x18, 0x00, 0x00, 0x00, 0x14, 0x00, 0x10, 0x00, 0x0c, 0x00,
  0x00, 0x00, 0x00, 0x00, 0x08, 0x00, 0x07, 0x00, 0x16, 0x00, 0x00, 0x00,
  0x00, 0x00, 0x00, 0x01, 0x14, 0x00, 0x00, 0x00, 0x20, 0x00, 0x00, 0x00,
  0x20, 0x00, 0x00, 0x00, 0x01, 0x00, 0x00, 0x00, 0x3c, 0x00, 0x00, 0x00,
  0x02, 0x00, 0x00, 0x00, 0xff, 0xff, 0xff, 0xff, 0x0d, 0x00, 0x00, 0x00,
  0x04, 0x00, 0x04, 0x00, 0x04, 0x00, 0x00, 0x00, 0x1e, 0x00, 0x00, 0x00,
  0x73, 0x65, 0x72, 0x76, 0x69, 0x6e, 0x67, 0x5f, 0x64, 0x65, 0x66, 0x61,
  0x75, 0x6c, 0x74, 0x5f, 0x6b, 0x65, 0x72, 0x61, 0x73, 0x5f, 0x74, 0x65,
  0x6e, 0x73, 0x6f, 0x72, 0x3a, 0x30, 0x00, 0x00, 0x02, 0x00, 0x00, 0x00,
  0x01, 0x00, 0x00, 0x00, 0x0d, 0x00, 0x00, 0x00, 0x02, 0x00, 0x00, 0x00,
  0x20, 0x00, 0x00, 0x00, 0x04, 0x00, 0x00, 0x00, 0xf4, 0xff, 0xff, 0xff,
  0x19, 0x00, 0x00, 0x00, 0x00, 0x00, 0x00, 0x19, 0x0c, 0x00, 0x0c, 0x00,
  0x0b, 0x00, 0x00, 0x00, 0x00, 0x00, 0x04, 0x00, 0x0c, 0x00, 0x00, 0x00,
  0x09, 0x00, 0x00, 0x00, 0x00, 0x00, 0x00, 0x09
};
unsigned int wine_mlp_float_tflite_len = 3632;
